unsigned char sine_model_quantized_tflite[] = {
  0x1c, 0x00, 0x00, 0x00, 0x54, 0x46, 0x4c, 0x33, 0x00, 0x00, 0x12, 0x00,
  0x1c, 0x00, 0x04, 0x00, 0x08, 0x00, 0x0c, 0x00, 0x10, 0x00, 0x14, 0x00,
  0x00, 0x00, 0x18, 0x00, 0x12, 0x00, 0x00, 0x00, 0x03, 0x00, 0x00, 0x00,
  0x58, 0x0a, 0x00, 0x00, 0x00, 0x06, 0x00, 0x00, 0xe8, 0x05, 0x00, 0x00,
  0x34, 0x00, 0x00, 0x00, 0x04, 0x00, 0x00, 0x00, 0x01, 0x00, 0x00, 0x00,
  0x04, 0x00, 0x00, 0x00, 0x50, 0xf6, 0xff, 0xff, 0x08, 0x00, 0x00, 0x00,
  0x0b, 0x00, 0x00, 0x00, 0x13, 0x00, 0x00, 0x00, 0x6d, 0x69, 0x6e, 0x5f,
  0x72, 0x75, 0x6e, 0x74, 0x69, 0x6d, 0x65, 0x5f, 0x76, 0x65, 0x72, 0x73,
  0x69, 0x6f, 0x6e, 0x00, 0x0c, 0x00, 0x00, 0x00, 0xa8, 0x05, 0x00, 0x00,
  0x94, 0x05, 0x00, 0x00, 0x3c, 0x05, 0x00, 0x00, 0x2c, 0x01, 0x00, 0x00,
  0xdc, 0x00, 0x00, 0x00, 0x8c, 0x00, 0x00, 0x00, 0x3c, 0x00, 0x00, 0x00,
  0x34, 0x00, 0x00, 0x00, 0x2c, 0x00, 0x00, 0x00, 0x24, 0x00, 0x00, 0x00,
  0x1c, 0x00, 0x00, 0x00, 0x04, 0x00, 0x00, 0x00, 0x9e, 0xfa, 0xff, 0xff,
  0x04, 0x00, 0x00, 0x00, 0x05, 0x00, 0x00, 0x00, 0x31, 0x2e, 0x35, 0x2e,
  0x30, 0x00, 0x00, 0x00, 0x54, 0xf6, 0xff, 0xff, 0x58, 0xf6, 0xff, 0xff,
  0x5c, 0xf6, 0xff, 0xff, 0x60, 0xf6, 0xff, 0xff, 0xc2, 0xfa, 0xff, 0xff,
  0x04, 0x00, 0x00, 0x00, 0x40, 0x00, 0x00, 0x00, 0xc8, 0x03, 0xe6, 0x3e,
  0xa6, 0x3c, 0xaa, 0x3e, 0xc0, 0x7c, 0xa5, 0x3e, 0x10, 0x4a, 0x29, 0xbd,
  0xd4, 0x01, 0xa2, 0x3e, 0x97, 0xdb, 0x01, 0xbf, 0x00, 0x00, 0x00, 0x00,
  0x53, 0x38, 0x76, 0x3e, 0x9a, 0x48, 0xdb, 0x3e, 0x00, 0x00, 0x00, 0x00,
  0x8f, 0x0d, 0x85, 0x3e, 0x34, 0xdc, 0x97, 0x3e, 0xfd, 0xd0, 0x8a, 0x3e,
  0xa6, 0x37, 0xb1, 0xbe, 0x3c, 0xb9, 0xbf, 0xbe, 0x00, 0x00, 0x00, 0x00,
  0x0e, 0xfb, 0xff, 0xff, 0x04, 0x00, 0x00, 0x00, 0x40, 0x00, 0x00, 0x00,
  0x06, 0x12, 0xbe, 0x3d, 0xad, 0xa2, 0x72, 0x3e, 0x55, 0xb8, 0x8c, 0x3e,
  0x6d, 0x64, 0x9b, 0x3e, 0x62, 0x15, 0x8f, 0xbe, 0xea, 0x7e, 0xcc, 0xbe,
  0xfc, 0xe9, 0xa7, 0xbe, 0x4a, 0x24, 0x2b, 0xbe, 0x0a, 0xf1, 0xc8, 0x3e,
  0x33, 0xd4, 0xf1, 0x3e, 0xe2, 0x78, 0xe8, 0x3e, 0xa9, 0x78, 0x1f, 0x3e,
  0x48, 0xd4, 0x06, 0xbe, 0xc9, 0x1c, 0x86, 0x3e, 0x29, 0x46, 0xd5, 0xbd,
  0xb6, 0xf4, 0x22, 0xbe, 0x5a, 0xfb, 0xff, 0xff, 0x04, 0x00, 0x00, 0x00,
  0x40, 0x00, 0x00, 0x00, 0x64, 0x7c, 0x12, 0xbe, 0xf0, 0x93, 0x32, 0xbf,
  0xbe, 0x9c, 0x1b, 0xbf, 0x5c, 0xe0, 0xd4, 0xbe, 0x00, 0x00, 0x00, 0x00,
  0x00, 0x00, 0x00, 0x00, 0x00, 0x00, 0x00, 0x00, 0x00, 0x00, 0x00, 0x00,
  0xc4, 0x5c, 0x5f, 0xbf, 0xc4, 0x02, 0x24, 0x3e, 0x0a, 0xf2, 0x9e, 0xbe,
  0x98, 0xbd, 0xd5, 0xbe, 0x00, 0x00, 0x00, 0x00, 0x89, 0x69, 0x42, 0x3f,
  0x51, 0x4d, 0xe6, 0x3d, 0x00, 0x00, 0x00, 0x00, 0xa6, 0xfb, 0xff, 0xff,
  0x04, 0x00, 0x00, 0x00, 0x00, 0x04, 0x00, 0x00, 0xbf, 0xb7, 0x0e, 0x3e,
  0xec, 0x6b, 0xe3, 0xbe, 0x58, 0x6c, 0xe7, 0x3d, 0xa0, 0xd5, 0xa2, 0xbd,
  0x98, 0x8d, 0x7e, 0xbd, 0xcc, 0xd0, 0x67, 0xbe, 0xca, 0x99, 0x7c, 0xbe,
  0xa6, 0x16, 0xb7, 0xbe, 0x79, 0x83, 0x01, 0xbe, 0x79, 0x2c, 0x42, 0xbf,
  0x26, 0xf3, 0x0c, 0xbf, 0xf6, 0xc3, 0xa3, 0x3e, 0x59, 0xf4, 0xbe, 0x3e,
  0x90, 0x35, 0xd9, 0x3e, 0x18, 0xe5, 0x0a, 0x3f, 0xde, 0x85, 0x46, 0x3e,
  0xf3, 0xf9, 0xd2, 0xbc, 0xf0, 0x4f, 0x65, 0xbf, 0x1f, 0x06, 0x9b, 0xbe,
  0x94, 0x7c, 0x8b, 0x3d, 0xca, 0x5d, 0x1a, 0x3e, 0x2f, 0xa1, 0xc4, 0xbe,
  0xf4, 0x7c, 0xe8, 0x3d, 0x90, 0x98, 0xcb, 0xbe, 0x39, 0xa1, 0x01, 0xbe,
  0x34, 0x95, 0x2f, 0xbc, 0x43, 0x05, 0xd0, 0xbe, 0x99, 0x27, 0x4c, 0xbd,
  0x72, 0x2d, 0x5c, 0x3e, 0xc0, 0x58, 0xea, 0x3e, 0x83, 0x32, 0x59, 0xbe,
  0x9a, 0xf5, 0x0f, 0xbe, 0x5e, 0x99, 0x12, 0x3e, 0xf1, 0x3e, 0x19, 0xbf,
  0x04, 0x59, 0xd2, 0xbe, 0x58, 0x8c, 0xd2, 0xbe, 0xca, 0xce, 0x71, 0x3e,
  0x49, 0xe3, 0xdb, 0x3e, 0x78, 0xd1, 0xb6, 0xbd, 0xe8, 0x81, 0x72, 0xbd,
  0x60, 0x56, 0x54, 0xbe, 0x4f, 0x55, 0xa1, 0x3e, 0xcf, 0xaa, 0xe5, 0xbe,
  0xa0, 0xc5, 0x82, 0xbb, 0x70, 0x61, 0x89, 0xbe, 0xa7, 0x3d, 0xdf, 0x3e,
  0xbd, 0x0d, 0xab, 0x3e, 0x49, 0x50, 0xcf, 0x3e, 0x1b, 0x29, 0x57, 0x3e,
  0x40, 0x61, 0xcc, 0xbd, 0xa6, 0xaa, 0xa8, 0x3e, 0x40, 0x84, 0xc4, 0x3b,
  0xc7, 0x87, 0x87, 0xbe, 0x6e, 0x37, 0x0b, 0x3e, 0x21, 0xf6, 0xc0, 0x3e,
  0xac, 0xf6, 0x27, 0xbe, 0xbc, 0x99, 0x92, 0xbe, 0xe6, 0xbd, 0xb4, 0xbe,
  0x43, 0xae, 0x82, 0x3e, 0xa1, 0x0a, 0x8a, 0xbe, 0x1c, 0xa4, 0xb6, 0xbd,
  0x84, 0x42, 0x83, 0xbd, 0x7f, 0xae, 0x9a, 0x3d, 0xd6, 0x07, 0x84, 0xbe,
  0xa3, 0x81, 0x94, 0x3e, 0x8f, 0x9d, 0xc3, 0xbe, 0xd7, 0xda, 0xd8, 0xbe,
  0x97, 0x4a, 0x04, 0x3e, 0x90, 0x58, 0x8c, 0x3c, 0x1d, 0x20, 0xc0, 0xbe,
  0x0e, 0xe4, 0x78, 0x3e, 0xe7, 0x87, 0xa6, 0x3e, 0x0d, 0x78, 0xed, 0xbe,
  0x3e, 0x39, 0xce, 0x3d, 0x4b, 0x29, 0xc6, 0x3e, 0x1c, 0xa6, 0xea, 0x3d,
  0x60, 0xe6, 0x67, 0xbd, 0x6c, 0x6b, 0xc1, 0x3e, 0x3e, 0xcb, 0xff, 0x3e,
  0x24, 0xd0, 0xba, 0x3d, 0x47, 0xbf, 0x49, 0x3e, 0xfc, 0x23, 0x02, 0x3f,
  0x6c, 0x4a, 0xc1, 0x3e, 0xde, 0xf1, 0x8b, 0xbe, 0x99, 0x6d, 0x92, 0xbe,
  0xd0, 0x13, 0xec, 0xbc, 0x22, 0x34, 0xbf, 0xbe, 0xaa, 0xb8, 0x18, 0x3e,
  0x8f, 0xc3, 0xef, 0x3e, 0xdc, 0x0c, 0x49, 0xbe, 0xe9, 0x84, 0xc4, 0x3e,
  0x57, 0x82, 0xc3, 0x3e, 0x51, 0xb3, 0xd8, 0x3e, 0xa3, 0x20, 0xce, 0xbe,
  0x51, 0x6c, 0x93, 0xbc, 0x60, 0x43, 0x8a, 0xbe, 0xfc, 0x02, 0xb2, 0xbe,
  0xea, 0x87, 0x19, 0x3e, 0xa6, 0xb4, 0x4d, 0xbe, 0xa2, 0x25, 0xd7, 0xbe,
  0x80, 0xe9, 0x49, 0x3b, 0xca, 0x7d, 0x9b, 0xbe, 0xac, 0x5e, 0xb6, 0xbe,
  0x89, 0x04, 0x55, 0xbe, 0xd0, 0xb0, 0x97, 0x3c, 0x8a, 0x05, 0x48, 0x3e,
  0x1c, 0xac, 0x5c, 0xbe, 0x00, 0x63, 0xc8, 0x3c, 0xc5, 0x2a, 0xcc, 0xbe,
  0x81, 0xe4, 0x7a, 0xbe, 0xbe, 0xd4, 0xd4, 0xbe, 0x58, 0x67, 0xd1, 0xbd,
  0xf4, 0x86, 0x3f, 0xbe, 0xad, 0xad, 0x06, 0xbe, 0x50, 0xc7, 0x27, 0xbe,
  0x04, 0x53, 0xfd, 0xbe, 0xe2, 0xd3, 0x46, 0x3e, 0x54, 0x82, 0x07, 0xbe,
  0x56, 0x8e, 0x74, 0x3e, 0x30, 0x1e, 0x4a, 0x3d, 0x6a, 0x81, 0x9e, 0x3d,
  0x99, 0xeb, 0x3e, 0x3d, 0x44, 0x5f, 0x95, 0x3e, 0x0a, 0x3f, 0xdf, 0x3e,
  0xae, 0x64, 0x09, 0x3e, 0x83, 0x9e, 0xd6, 0xbb, 0x5a, 0x1f, 0xd5, 0xbd,
  0x5b, 0x93, 0xa2, 0x3e, 0xa6, 0x3a, 0x42, 0x3e, 0x3c, 0xc0, 0xbf, 0xbe,
  0x14, 0xd0, 0x47, 0x3e, 0x18, 0x25, 0xe6, 0x3d, 0x22, 0x2e, 0x6f, 0x3e,
  0x56, 0xd9, 0x9a, 0xbe, 0xa4, 0x96, 0xed, 0x3d, 0xa0, 0x1d, 0x48, 0xbd,
  0x71, 0x39, 0x9e, 0x3d, 0xf6, 0x39, 0x5a, 0xbf, 0x6d, 0x5a, 0x94, 0xbe,
  0x98, 0x2d, 0xcf, 0xbe, 0x0c, 0x07, 0xae, 0xbd, 0xda, 0x4d, 0x7e, 0x3d,
  0xed, 0x04, 0xdd, 0x3e, 0xf7, 0xe4, 0x4c, 0xbe, 0x6e, 0xbc, 0x6f, 0x3e,
  0x19, 0x2b, 0xab, 0xbe, 0x74, 0xac, 0xc5, 0x3d, 0x50, 0x46, 0x52, 0x3d,
  0xed, 0xf0, 0xa2, 0xbe, 0x7e, 0xb8, 0x12, 0xbe, 0xe8, 0xa7, 0x88, 0x3d,
  0xf2, 0xa1, 0x20, 0xbe, 0xbf, 0xd3, 0x74, 0xbe, 0xcf, 0x53, 0x41, 0xbe,
  0x88, 0x29, 0x38, 0xbe, 0xc5, 0xd6, 0xba, 0x3e, 0xba, 0x29, 0xa5, 0xbe,
  0xf4, 0x76, 0x81, 0xbe, 0x48, 0x79, 0x93, 0xbe, 0xb0, 0xf2, 0x04, 0xbe,
  0x91, 0xc4, 0x25, 0xbe, 0xda, 0x98, 0xe4, 0xbe, 0x6d, 0x5b, 0x7c, 0xbe,
  0x50, 0x19, 0xa5, 0xbd, 0x7f, 0x3c, 0xa2, 0x3e, 0x34, 0x5a, 0xc3, 0x3d,
  0x90, 0xc1, 0xe1, 0xbc, 0xdb, 0x43, 0xaa, 0xbe, 0xc9, 0x2f, 0x81, 0xbe,
  0xef, 0xb5, 0x81, 0x3e, 0x2e, 0x2e, 0x8d, 0x3e, 0x15, 0xc0, 0xaf, 0x3d,
  0x62, 0x21, 0x1e, 0xbe, 0xb9, 0x48, 0xc4, 0x3d, 0x52, 0x0e, 0xcc, 0xbd,
  0xbd, 0x3a, 0xa6, 0x3e, 0x4f, 0x3f, 0x2c, 0x3e, 0x06, 0x26, 0xcd, 0xbe,
  0xce, 0xb8, 0x43, 0xbe, 0x38, 0x31, 0x0c, 0xbf, 0x9e, 0x15, 0x80, 0xbe,
  0xe6, 0xdd, 0x1b, 0x3e, 0x62, 0x7d, 0xdc, 0xbe, 0xcb, 0x98, 0xa9, 0x3e,
  0x2e, 0xf3, 0x15, 0xbf, 0x61, 0x36, 0x59, 0xbe, 0xec, 0xd6, 0x67, 0x3e,
  0x77, 0x02, 0x76, 0x3e, 0x50, 0x46, 0xb9, 0xbd, 0xc7, 0xdc, 0xa4, 0x3e,
  0xdb, 0x35, 0x78, 0x3c, 0x60, 0x33, 0x14, 0xbd, 0x12, 0xab, 0x35, 0x3e,
  0x09, 0x81, 0x12, 0xbf, 0x89, 0x76, 0xc5, 0xbd, 0xb6, 0x93, 0xbc, 0xbe,
  0x06, 0x41, 0x3b, 0x3e, 0xc8, 0xf5, 0xe1, 0xbd, 0x5d, 0xeb, 0xad, 0x3e,
  0x4e, 0x76, 0x76, 0x3e, 0x2c, 0x02, 0xee, 0x3d, 0xcd, 0x33, 0x15, 0x3d,
  0x57, 0x52, 0x58, 0x3e, 0xe7, 0xec, 0x73, 0xbe, 0xc4, 0x96, 0x0d, 0xbe,
  0x95, 0x95, 0xdc, 0x3e, 0xe3, 0x4f, 0x85, 0x3e, 0x70, 0x60, 0x98, 0xbe,
  0x99, 0x48, 0x0c, 0xbd, 0x18, 0x55, 0x1a, 0x3f, 0x26, 0x02, 0xf6, 0x3e,
  0x4b, 0x09, 0xc0, 0x3d, 0xe3, 0x3f, 0xa9, 0xbe, 0xcc, 0xc4, 0xea, 0x3d,
  0x00, 0xce, 0x07, 0xba, 0xa4, 0xda, 0x81, 0xbe, 0x52, 0x8f, 0x24, 0xbb,
  0xdf, 0x37, 0x8c, 0x3e, 0x7a, 0xbc, 0x63, 0x3c, 0x1b, 0xe2, 0x2b, 0x3c,
  0x8c, 0xe4, 0x92, 0xbd, 0x28, 0xbd, 0xdb, 0xbe, 0x53, 0xbd, 0xcc, 0xbe,
  0x83, 0x34, 0xbc, 0xbe, 0x26, 0xc9, 0x34, 0x3e, 0xec, 0x33, 0x74, 0x3e,
  0xf8, 0xf1, 0x59, 0x3e, 0xce, 0x93, 0xc0, 0x3e, 0x57, 0xe2, 0xd9, 0x3e,
  0x52, 0x7e, 0x3b, 0x3e, 0x81, 0xdb, 0x8d, 0x3e, 0x1f, 0x5d, 0xad, 0xbe,
  0xf9, 0xda, 0xe4, 0xbc, 0xc0, 0x14, 0xe6, 0x3c, 0x07, 0x08, 0xc7, 0x3d,
  0x57, 0x02, 0xf7, 0x3d, 0x68, 0x05, 0x32, 0x3d, 0xe9, 0xd1, 0x82, 0xbd,
  0x82, 0xdc, 0x73, 0xbe, 0x2f, 0xa3, 0xcb, 0x3e, 0x55, 0xc8, 0x8e, 0x3e,
  0x20, 0xfc, 0x7a, 0xbc, 0x21, 0x9b, 0x8c, 0x3e, 0x14, 0x6b, 0x9e, 0xbe,
  0x66, 0x05, 0x08, 0x3e, 0xfa, 0xc7, 0x0f, 0xbe, 0x13, 0xb3, 0xd1, 0x3e,
  0xea, 0x0e, 0x51, 0x3e, 0x1c, 0xc4, 0xc1, 0xbe, 0x70, 0xb1, 0xd9, 0xbe,
  0x8b, 0x41, 0xaa, 0xbe, 0xce, 0xb4, 0x8e, 0xbe, 0x7c, 0xee, 0xd3, 0x3d,
  0x7d, 0x8b, 0x67, 0xbe, 0x0d, 0x06, 0x82, 0xbe, 0xb4, 0x4d, 0x81, 0x3d,
  0xb2, 0xff, 0xff, 0xff, 0x04, 0x00, 0x00, 0x00, 0x40, 0x00, 0x00, 0x00,
  0xba, 0x30, 0x82, 0xbf, 0xa4, 0x30, 0x7b, 0x3f, 0x4a, 0x15, 0x8a, 0x3f,
  0x6e, 0x4d, 0xbe, 0x3e, 0x3f, 0x32, 0x9a, 0xbe, 0xb5, 0x65, 0xcb, 0x3f,
  0x6e, 0xf6, 0xce, 0xbe, 0x2a, 0x99, 0x55, 0xbe, 0x9d, 0x8b, 0x30, 0xbf,
  0x80, 0x16, 0xe2, 0xbe, 0xd2, 0x18, 0x97, 0xbe, 0xa1, 0xf3, 0x53, 0x3f,
  0x01, 0x64, 0xe8, 0xbd, 0x4e, 0xb8, 0xe9, 0x3e, 0x70, 0x1d, 0xc5, 0x3e,
  0x66, 0xc0, 0xe6, 0xbe, 0x00, 0x00, 0x06, 0x00, 0x08, 0x00, 0x04, 0x00,
  0x06, 0x00, 0x00, 0x00, 0x04, 0x00, 0x00, 0x00, 0x04, 0x00, 0x00, 0x00,
  0xca, 0x8e, 0xca, 0xbe, 0xb8, 0xfb, 0xff, 0xff, 0x0f, 0x00, 0x00, 0x00,
  0x54, 0x4f, 0x43, 0x4f, 0x20, 0x43, 0x6f, 0x6e, 0x76, 0x65, 0x72, 0x74,
  0x65, 0x64, 0x2e, 0x00, 0x01, 0x00, 0x00, 0x00, 0x10, 0x00, 0x00, 0x00,
  0x0c, 0x00, 0x14, 0x00, 0x04, 0x00, 0x08, 0x00, 0x0c, 0x00, 0x10, 0x00,
  0x0c, 0x00, 0x00, 0x00, 0xf0, 0x00, 0x00, 0x00, 0xe4, 0x00, 0x00, 0x00,
  0xd8, 0x00, 0x00, 0x00, 0x04, 0x00, 0x00, 0x00, 0x03, 0x00, 0x00, 0x00,
  0x90, 0x00, 0x00, 0x00, 0x48, 0x00, 0x00, 0x00, 0x04, 0x00, 0x00, 0x00,
  0xce, 0xff, 0xff, 0xff, 0x00, 0x00, 0x00, 0x08, 0x18, 0x00, 0x00, 0x00,
  0x0c, 0x00, 0x00, 0x00, 0x04, 0x00, 0x00, 0x00, 0x1c, 0xfc, 0xff, 0xff,
  0x01, 0x00, 0x00, 0x00, 0x00, 0x00, 0x00, 0x00, 0x03, 0x00, 0x00, 0x00,
  0x07, 0x00, 0x00, 0x00, 0x08, 0x00, 0x00, 0x00, 0x09, 0x00, 0x00, 0x00,
  0x00, 0x00, 0x0e, 0x00, 0x14, 0x00, 0x00, 0x00, 0x08, 0x00, 0x0c, 0x00,
  0x07, 0x00, 0x10, 0x00, 0x0e, 0x00, 0x00, 0x00, 0x00, 0x00, 0x00, 0x08,
  0x1c, 0x00, 0x00, 0x00, 0x10, 0x00, 0x00, 0x00, 0x04, 0x00, 0x00, 0x00,
  0xba, 0xff, 0xff, 0xff, 0x00, 0x00, 0x00, 0x01, 0x01, 0x00, 0x00, 0x00,
  0x07, 0x00, 0x00, 0x00, 0x03, 0x00, 0x00, 0x00, 0x04, 0x00, 0x00, 0x00,
  0x05, 0x00, 0x00, 0x00, 0x06, 0x00, 0x00, 0x00, 0x00, 0x00, 0x0e, 0x00,
  0x16, 0x00, 0x00, 0x00, 0x08, 0x00, 0x0c, 0x00, 0x07, 0x00, 0x10, 0x00,
  0x0e, 0x00, 0x00, 0x00, 0x00, 0x00, 0x00, 0x08, 0x24, 0x00, 0x00, 0x00,
  0x18, 0x00, 0x00, 0x00, 0x0c, 0x00, 0x00, 0x00, 0x00, 0x00, 0x06, 0x00,
  0x08, 0x00, 0x07, 0x00, 0x06, 0x00, 0x00, 0x00, 0x00, 0x00, 0x00, 0x01,
  0x01, 0x00, 0x00, 0x00, 0x04, 0x00, 0x00, 0x00, 0x03, 0x00, 0x00, 0x00,
  0x01, 0x00, 0x00, 0x00, 0x02, 0x00, 0x00, 0x00, 0x03, 0x00, 0x00, 0x00,
  0x01, 0x00, 0x00, 0x00, 0x00, 0x00, 0x00, 0x00, 0x01, 0x00, 0x00, 0x00,
  0x01, 0x00, 0x00, 0x00, 0x0a, 0x00, 0x00, 0x00, 0x10, 0x03, 0x00, 0x00,
  0xa4, 0x02, 0x00, 0x00, 0x40, 0x02, 0x00, 0x00, 0xf4, 0x01, 0x00, 0x00,
  0xac, 0x01, 0x00, 0x00, 0x48, 0x01, 0x00, 0x00, 0xfc, 0x00, 0x00, 0x00,
  0xb4, 0x00, 0x00, 0x00, 0x50, 0x00, 0x00, 0x00, 0x04, 0x00, 0x00, 0x00,
  0x26, 0xfd, 0xff, 0xff, 0x3c, 0x00, 0x00, 0x00, 0x01, 0x00, 0x00, 0x00,
  0x0c, 0x00, 0x00, 0x00, 0x04, 0x00, 0x00, 0x00, 0x18, 0xfd, 0xff, 0xff,
  0x20, 0x00, 0x00, 0x00, 0x73, 0x65, 0x71, 0x75, 0x65, 0x6e, 0x74, 0x69,
  0x61, 0x6c, 0x5f, 0x31, 0x2f, 0x64, 0x65, 0x6e, 0x73, 0x65, 0x5f, 0x34,
  0x2f, 0x4d, 0x61, 0x74, 0x4d, 0x75, 0x6c, 0x5f, 0x62, 0x69, 0x61, 0x73,
  0x00, 0x00, 0x00, 0x00, 0x01, 0x00, 0x00, 0x00, 0x01, 0x00, 0x00, 0x00,
  0x6e, 0xfd, 0xff, 0xff, 0x50, 0x00, 0x00, 0x00, 0x02, 0x00, 0x00, 0x00,
  0x0c, 0x00, 0x00, 0x00, 0x04, 0x00, 0x00, 0x00, 0x60, 0xfd, 0xff, 0xff,
  0x34, 0x00, 0x00, 0x00, 0x73, 0x65, 0x71, 0x75, 0x65, 0x6e, 0x74, 0x69,
  0x61, 0x6c, 0x5f, 0x31, 0x2f, 0x64, 0x65, 0x6e, 0x73, 0x65, 0x5f, 0x34,
  0x2f, 0x4d, 0x61, 0x74, 0x4d, 0x75, 0x6c, 0x2f, 0x52, 0x65, 0x61, 0x64,
  0x56, 0x61, 0x72, 0x69, 0x61, 0x62, 0x6c, 0x65, 0x4f, 0x70, 0x2f, 0x74,
  0x72, 0x61, 0x6e, 0x73, 0x70, 0x6f, 0x73, 0x65, 0x00, 0x00, 0x00, 0x00,
  0x02, 0x00, 0x00, 0x00, 0x01, 0x00, 0x00, 0x00, 0x10, 0x00, 0x00, 0x00,
  0xce, 0xfd, 0xff, 0xff, 0x34, 0x00, 0x00, 0x00, 0x09, 0x00, 0x00, 0x00,
  0x0c, 0x00, 0x00, 0x00, 0x04, 0x00, 0x00, 0x00, 0xc0, 0xfd, 0xff, 0xff,
  0x19, 0x00, 0x00, 0x00, 0x73, 0x65, 0x71, 0x75, 0x65, 0x6e, 0x74, 0x69,
  0x61, 0x6c, 0x5f, 0x31, 0x2f, 0x64, 0x65, 0x6e, 0x73, 0x65, 0x5f, 0x33,
  0x2f, 0x52, 0x65, 0x6c, 0x75, 0x00, 0x00, 0x00, 0x02, 0x00, 0x00, 0x00,
  0x01, 0x00, 0x00, 0x00, 0x10, 0x00, 0x00, 0x00, 0x12, 0xfe, 0xff, 0xff,
  0x3c, 0x00, 0x00, 0x00, 0x06, 0x00, 0x00, 0x00, 0x0c, 0x00, 0x00, 0x00,
  0x04, 0x00, 0x00, 0x00, 0x04, 0xfe, 0xff, 0xff, 0x20, 0x00, 0x00, 0x00,
  0x73, 0x65, 0x71, 0x75, 0x65, 0x6e, 0x74, 0x69, 0x61, 0x6c, 0x5f, 0x31,
  0x2f, 0x64, 0x65, 0x6e, 0x73, 0x65, 0x5f, 0x33, 0x2f, 0x4d, 0x61, 0x74,
  0x4d, 0x75, 0x6c, 0x5f, 0x62, 0x69, 0x61, 0x73, 0x00, 0x00, 0x00, 0x00,
  0x01, 0x00, 0x00, 0x00, 0x10, 0x00, 0x00, 0x00, 0x5a, 0xfe, 0xff, 0xff,
  0x50, 0x00, 0x00, 0x00, 0x03, 0x00, 0x00, 0x00, 0x0c, 0x00, 0x00, 0x00,
  0x04, 0x00, 0x00, 0x00, 0x4c, 0xfe, 0xff, 0xff, 0x34, 0x00, 0x00, 0x00,
  0x73, 0x65, 0x71, 0x75, 0x65, 0x6e, 0x74, 0x69, 0x61, 0x6c, 0x5f, 0x31,
  0x2f, 0x64, 0x65, 0x6e, 0x73, 0x65, 0x5f, 0x33, 0x2f, 0x4d, 0x61, 0x74,
  0x4d, 0x75, 0x6c, 0x2f, 0x52, 0x65, 0x61, 0x64, 0x56, 0x61, 0x72, 0x69,
  0x61, 0x62, 0x6c, 0x65, 0x4f, 0x70, 0x2f, 0x74, 0x72, 0x61, 0x6e, 0x73,
  0x70, 0x6f, 0x73, 0x65, 0x00, 0x00, 0x00, 0x00, 0x02, 0x00, 0x00, 0x00,
  0x10, 0x00, 0x00, 0x00, 0x10, 0x00, 0x00, 0x00, 0xba, 0xfe, 0xff, 0xff,
  0x34, 0x00, 0x00, 0x00, 0x07, 0x00, 0x00, 0x00, 0x0c, 0x00, 0x00, 0x00,
  0x04, 0x00, 0x00, 0x00, 0xac, 0xfe, 0xff, 0xff, 0x19, 0x00, 0x00, 0x00,
  0x73, 0x65, 0x71, 0x75, 0x65, 0x6e, 0x74, 0x69, 0x61, 0x6c, 0x5f, 0x31,
  0x2f, 0x64, 0x65, 0x6e, 0x73, 0x65, 0x5f, 0x32, 0x2f, 0x52, 0x65, 0x6c,
  0x75, 0x00, 0x00, 0x00, 0x02, 0x00, 0x00, 0x00, 0x01, 0x00, 0x00, 0x00,
  0x10, 0x00, 0x00, 0x00, 0xfe, 0xfe, 0xff, 0xff, 0x3c, 0x00, 0x00, 0x00,
  0x04, 0x00, 0x00, 0x00, 0x0c, 0x00, 0x00, 0x00, 0x04, 0x00, 0x00, 0x00,
  0xf0, 0xfe, 0xff, 0xff, 0x20, 0x00, 0x00, 0x00, 0x73, 0x65, 0x71, 0x75,
  0x65, 0x6e, 0x74, 0x69, 0x61, 0x6c, 0x5f, 0x31, 0x2f, 0x64, 0x65, 0x6e,
  0x73, 0x65, 0x5f, 0x32, 0x2f, 0x4d, 0x61, 0x74, 0x4d, 0x75, 0x6c, 0x5f,
  0x62, 0x69, 0x61, 0x73, 0x00, 0x00, 0x00, 0x00, 0x01, 0x00, 0x00, 0x00,
  0x10, 0x00, 0x00, 0x00, 0x46, 0xff, 0xff, 0xff, 0x50, 0x00, 0x00, 0x00,
  0x05, 0x00, 0x00, 0x00, 0x0c, 0x00, 0x00, 0x00, 0x04, 0x00, 0x00, 0x00,
  0x38, 0xff, 0xff, 0xff, 0x34, 0x00, 0x00, 0x00, 0x73, 0x65, 0x71, 0x75,
  0x65, 0x6e, 0x74, 0x69, 0x61, 0x6c, 0x5f, 0x31, 0x2f, 0x64, 0x65, 0x6e,
  0x73, 0x65, 0x5f, 0x32, 0x2f, 0x4d, 0x61, 0x74, 0x4d, 0x75, 0x6c, 0x2f,
  0x52, 0x65, 0x61, 0x64, 0x56, 0x61, 0x72, 0x69, 0x61, 0x62, 0x6c, 0x65,
  0x4f, 0x70, 0x2f, 0x74, 0x72, 0x61, 0x6e, 0x73, 0x70, 0x6f, 0x73, 0x65,
  0x00, 0x00, 0x00, 0x00, 0x02, 0x00, 0x00, 0x00, 0x10, 0x00, 0x00, 0x00,
  0x01, 0x00, 0x00, 0x00, 0xa6, 0xff, 0xff, 0xff, 0x48, 0x00, 0x00, 0x00,
  0x08, 0x00, 0x00, 0x00, 0x2c, 0x00, 0x00, 0x00, 0x0c, 0x00, 0x00, 0x00,
  0x08, 0x00, 0x0c, 0x00, 0x04, 0x00, 0x08, 0x00, 0x08, 0x00, 0x00, 0x00,
  0x10, 0x00, 0x00, 0x00, 0x04, 0x00, 0x00, 0x00, 0x01, 0x00, 0x00, 0x00,
  0x00, 0x00, 0x7f, 0x43, 0x01, 0x00, 0x00, 0x00, 0x00, 0x00, 0x00, 0x00,
  0x0d, 0x00, 0x00, 0x00, 0x64, 0x65, 0x6e, 0x73, 0x65, 0x5f, 0x32, 0x5f,
  0x69, 0x6e, 0x70, 0x75, 0x74, 0x00, 0x00, 0x00, 0x02, 0x00, 0x00, 0x00,
  0x01, 0x00, 0x00, 0x00, 0x01, 0x00, 0x00, 0x00, 0x00, 0x00, 0x0e, 0x00,
  0x14, 0x00, 0x04, 0x00, 0x00, 0x00, 0x08, 0x00, 0x0c, 0x00, 0x10, 0x00,
  0x0e, 0x00, 0x00, 0x00, 0x28, 0x00, 0x00, 0x00, 0x0a, 0x00, 0x00, 0x00,
  0x10, 0x00, 0x00, 0x00, 0x08, 0x00, 0x00, 0x00, 0x04, 0x00, 0x04, 0x00,
  0x04, 0x00, 0x00, 0x00, 0x08, 0x00, 0x00, 0x00, 0x49, 0x64, 0x65, 0x6e,
  0x74, 0x69, 0x74, 0x79, 0x00, 0x00, 0x00, 0x00, 0x02, 0x00, 0x00, 0x00,
  0x01, 0x00, 0x00, 0x00, 0x01, 0x00, 0x00, 0x00, 0x01, 0x00, 0x00, 0x00,
  0x10, 0x00, 0x00, 0x00, 0x00, 0x00, 0x0a, 0x00, 0x0c, 0x00, 0x07, 0x00,
  0x00, 0x00, 0x08, 0x00, 0x0a, 0x00, 0x00, 0x00, 0x00, 0x00, 0x00, 0x09,
  0x03, 0x00, 0x00, 0x00
};
unsigned int sine_model_quantized_tflite_len = 2716;
